1111110001110010
1111011101110111
0000001010110000
0000111010010000
0000011011001110
1111011011111110
0000010111111011
0000010100111110
0000011100000111
1111010111110100
1111001101111101
1111111100101001
1110110111010101
0000000110011110
0000111100100111
1111111110000010
0000011000000100
0000000100101110
1111111100111010
1111010111000111
0000101001010110
0000100100000000
0000100010110110
1111101110000110
1111100000111000
0000010111010010
1111001000111010
0000100010111100
0000011110001011
1110101010101101
1111101100110110
1111111110001110
0000111010110101
0000011111000010
1111101001110011
1111110100011111
1111111001100110
1111010100011100
1111111110011011
0000001101000010
1111110111110100
1111100100001000
0000101011111110
1111110101011100
0000000101111110
0001001001001101
1111111111000000
1111110110001110
1111011101101001
1111100010110101
1111100010011101
1111010100010010
0000010111011010
1111100101001110
1111111000010000
1111101110100110
1111001101000111
1111111100101111
0000011010101011
0000011011100001
0000011010000111
1111100100000000
1111110101101111
0000000001010001
0000101001010110
0000010100101000
0000001010001011
0000000000111000
1111110100110011
1111011000010101
1101111010101001
1110010011010110
1111011010111011
1110000011010001
1101011100010111
1110101101101000
1110111111001111
1100100101101010
1110110101100110
1101010110100011
