01
02
02
00
00
00
FF
FF
FE
00
01
01
FF
FF
02
03
01
03
FE
FD
03
02
01
00
02
01
01
00
01
00
03
FD
FF
01
01
01
FE
02
FF
03
01
00
01
01
02
02
FF
00
01
02
00
FE
02
01
00
FE
FE
00
02
02
FE
00
FE
02
FF
FD
FF
01
FE
FF
FA
F9
FC
FE
FE
FD
FD
FF
01
02
00
FE
02
FF
03
FE
00
03
00
00
FB
FA
02
00
00
02
01
02
05
02
01
03
FB
F8
FD
F6
FB
FF
FE
FF
00
FF
FF
00
FD
00
FE
FD
FC
FD
01
06
00
07
00
04
FF
04
FF
06
02
FD
FC
F8
FC
FD
FB
FD
FF
FE
00
00
FE
00
FF
FA
FE
01
06
00
08
03
F9
06
08
04
07
0A
0E
07
FF
01
00
FC
F9
FC
00
00
FF
01
FE
00
FD
FC
01
01
01
F7
02
FE
FB
09
07
FF
04
08
0B
05
04
0B
0B
00
F5
F3
F9
01
FF
FE
FF
02
FD
FF
06
FF
FA
00
03
02
FD
09
03
FF
02
0C
0C
07
02
FF
04
08
FD
F4
F8
01
00
FF
02
03
FB
FC
01
FF
FE
07
FF
FD
05
FF
09
0C
12
0A
09
01
08
03
04
0D
06
F3
FB
FF
02
FE
01
FF
FC
FE
FA
FD
FA
FE
06
FC
00
0B
01
F9
04
0C
0B
0A
05
FB
FD
10
0F
F3
FC
02
02
FF
FF
02
00
01
FB
FC
FC
03
FA
04
01
06
02
F9
02
10
09
00
05
02
08
12
0C
F3
FA
02
FF
01
FE
03
FB
FB
02
03
00
F7
FF
03
F3
FC
EF
E7
EC
FE
FB
FF
08
10
09
08
0C
F8
FA
FE
00
00
FF
FF
FF
01
09
03
FD
FF
01
00
04
03
EC
E1
E7
FF
FF
03
05
05
0A
10
15
00
FE
03
02
FF
01
02
FF
FD
0B
0A
04
05
0B
01
00
EE
E5
E0
EA
FA
01
FA
F7
FE
08
10
12
03
FD
02
FF
00
00
FD
FB
0B
08
11
0A
0E
03
06
08
F9
E2
E7
E7
FA
FB
FB
04
0B
05
0D
11
03
FF
FF
02
FE
02
FD
05
0B
FD
10
0A
0A
0A
01
02
EE
DB
E7
EE
F3
FC
FC
0A
06
05
0E
0E
02
FF
01
03
01
01
FF
07
0F
08
08
0D
09
07
04
F7
DF
E7
F6
F8
00
00
02
0B
08
03
07
03
FB
01
02
FE
02
00
00
03
0D
09
05
00
0D
0E
06
FD
E7
EB
F4
FD
07
FF
04
07
02
06
03
FF
01
00
00
02
00
01
FB
01
01
04
04
06
0C
0E
03
F4
E7
F0
FC
00
FF
FE
FF
FC
FF
08
03
00
FE
FF
02
03
FF
00
FE
00
05
05
08
08
00
07
0C
0B
F9
F7
F8
F9
02
00
F8
00
02
08
00
FD
FF
FF
03
01
00
02
FD
03
0B
05
03
08
05
0C
0F
11
09
FE
FF
FB
00
FA
FA
FB
04
06
F9
FD
FF
00
FE
FF
02
FD
FD
FD
08
05
04
00
00
09
0D
0F
02
FF
02
FF
F4
F6
F8
FC
FF
03
FD
FD
01
02
02
02
FE
FE
00
F6
FE
08
00
04
07
08
07
06
13
04
02
00
02
FA
FE
FD
FC
03
FE
FF
01
02
FE
02
FE
00
00
F9
F7
FE
03
07
0C
11
0F
08
0A
07
03
01
02
F8
F2
F5
FA
FF
FB
FF
02
01
00
00
FE
FE
01
FE
FE
FC
F7
FD
FE
02
FF
09
0B
05
04
FB
FD
F5
F7
F3
F5
FB
FE
00
FF
00
FF
03
01
FF
00
01
FF
FC
FD
F8
F3
EF
F1
EB
EE
ED
EE
F6
F2
F4
F9
FB
F9
FC
01
FF
FD
02
00
01
02
FF
01
FE
FE
FF
FC
00
FF
FB
FE
FF
FB
FB
FE
FE
FA
00
FD
FF
00
FD
02
FF
00
00
FD
01
02
01
FD
01
01
FF
FF
02
01
01
00
FF
FF
02
FD
02
02
01
FF
FF
FD
FF
01
01
FF
00
FF
01
02
00
FD
00
00
00
01
00
02
FF
FD
01
02
00
02
FE
FD
00
01
00
02
02
01
00
01
01
02
FE
FF
FD
00
00
03
01
FF
02
FD
02
FE
02
FE
02
03
FF
01
FE
02
FD
FF
02
FD
02
FF
00
02
01
03
00
00
00
01
FD
00
FF
FF
FD
FE
FE
08
07
0D
06
04
FF
02
FF
FE
01
00
02
FF
00
01
01
02
02
02
02
FF
03
FF
FC
FB
F9
F4
FD
FD
FC
04
07
FB
FB
FC
FD
FA
FB
FE
00
02
01
02
FF
00
01
02
00
04
02
02
00
FF
FB
FC
FD
0A
05
05
02
FD
FA
05
03
FF
FE
FD
F9
FB
FD
FD
FE
FE
03
02
00
02
02
FE
F5
F7
F9
F5
F9
02
FF
07
FA
F5
00
01
05
09
07
05
FF
F9
FF
FE
01
02
02
FF
FF
FE
FE
FA
F5
F4
FD
00
FA
FB
FA
F5
F8
F4
FD
FA
02
03
03
03
FE
FA
00
00
FE
00
02
FD
00
F9
F6
F9
EF
F3
FB
FA
01
F9
FA
F2
F9
F8
F4
FE
02
01
FE
FA
F5
FC
00
FE
02
01
00
02
FE
FC
F5
F7
F2
F1
F9
F8
00
01
FF
FF
F4
00
FB
FC
F9
F5
F7
EE
ED
F8
FE
FE
01
FD
01
FE
FD
F5
F4
F9
FA
F7
FC
FF
FD
FE
04
0F
04
01
FC
F6
F2
F5
F1
F2
F5
FB
FF
00
00
01
FF
FD
FC
F8
F2
F4
F9
F6
FF
04
FD
09
13
1A
0A
03
F7
F7
F1
F7
F4
F4
F6
FE
00
FD
FE
FE
00
00
FF
FB
F3
F5
F6
F5
FA
FA
FC
0A
18
1B
08
FD
FF
F7
F6
F7
F6
FB
F9
FF
00
01
00
FE
02
02
00
FD
00
FB
F8
FC
F3
F0
00
08
20
11
04
01
FE
F7
F9
FD
FC
FC
00
00
01
02
03
FF
00
02
01
FF
FE
FB
01
FC
E6
E8
00
08
14
10
04
0C
F3
F5
F7
FA
FA
F9
FD
FE
FF
FF
03
FF
FE
FE
00
FE
FF
FB
00
FA
E7
EA
02
0A
13
0F
04
FA
EB
EE
F6
FB
FC
FF
01
FE
02
02
02
FF
01
00
02
FA
F8
FC
00
F6
ED
F9
07
0F
1A
04
0C
EF
ED
EA
F4
F7
F8
FE
FD
FF
00
FE
03
FF
FE
02
02
FA
F5
F5
FA
FD
FC
FA
FA
0F
18
FD
03
E3
EA
EF
F3
FB
FA
F9
FD
00
FE
FF
02
00
FF
03
00
F7
F0
EF
FB
FB
04
F6
04
10
17
FF
F0
E6
F1
FA
F9
FA
FC
FF
FC
FD
00
02
FE
00
FF
FF
FD
F3
E8
F2
FC
FE
F8
F7
FC
03
08
F4
EE
FA
FF
00
04
FE
FC
FC
FF
03
FF
FE
01
FE
00
01
FA
EE
F2
00
FE
05
FB
FA
F9
04
FB
01
08
FF
06
08
03
01
FE
00
04
06
03
02
03
01
FF
FE
FF
EF
FB
00
06
03
07
05
07
00
FE
FF
0B
08
12
0E
04
04
FE
FE
03
00
02
03
03
00
01
00
06
0F
10
09
08
FF
0C
FF
FC
FB
07
07
00
05
0E
0A
0D
0B
FE
FD
06
01
01
FE
02
01
00
00
08
1A
12
07
02
03
FD
F3
EE
F3
FD
FF
FE
0C
11
08
0B
03
FB
FC
01
01
FE
FF
00
FD
02
00
00
0F
0B
04
FF
03
FD
FC
08
FE
F9
04
07
08
02
03
00
F8
FC
FC
FC
01
02
03
FF
00
02
FC
FB
00
02
FC
F6
FB
F8
F5
F5
F5
F4
F6
ED
F9
01
FF
00
FD
FF
00
FE
FE
FE
FD
FE
03
01
FE
FD
FD
FC
FB
FB
F6
EB
F1
F3
F1
F1
EF
EF
F9
FB
FC
00
FE
01
02
FF
01
FE
00
02
FE
01
02
FD
02
FF
00
FE
FF
FD
FB
F9
FA
FB
FF
FB
01
FC
01
FF
FF
01
02
FD
00
00
00
FF
FD
FF
00
FF
00
00
FE
01
FF
02
FD
00
01
FF
00
02
FF
FF
01
FE
00
FE
FD
FE
01
03
01
FE
FF
01
01
01
00
FF
02
00
01
00
FF
00
01
01
01
02
00
00
01
02
02
FF
FF
03
02
01
FF
00
FF
00
02
FE
01
FE
FE
00
FD
02
FD
FD
01
01
01
03
02
FF
FD
00
FF
FE
02
02
FF
FE
01
01
01
00
01
02
FF
00
FD
FF
00
03
03
05
02
02
02
05
FF
FE
FB
01
FE
00
FD
02
FF
FE
02
FE
FE
02
02
01
00
03
01
03
0F
10
12
0E
10
0C
06
0A
08
FD
FC
FA
F9
FD
FB
00
00
00
FF
02
01
03
FF
FC
00
04
05
09
12
0C
09
09
05
0D
04
05
05
02
FC
FB
F5
F1
F5
F8
00
FF
00
01
02
01
00
01
02
04
05
05
05
02
08
04
04
03
01
0A
04
04
FF
02
FE
FC
F6
F8
FC
FC
FE
02
FE
02
02
04
03
06
05
01
06
07
FD
FF
01
00
04
06
FD
FE
FA
FB
FC
F9
EC
F4
FE
01
FF
FE
00
FE
00
0A
08
0B
FF
07
FD
FA
06
FB
0B
01
FB
02
F4
FE
FA
F9
01
04
E9
EF
FC
01
02
FE
03
FF
03
0C
06
01
FF
01
FC
0A
06
FD
FE
FF
00
FC
01
F9
06
01
FE
FF
FE
F1
FB
00
FE
02
02
00
04
08
0F
FD
FB
FC
05
09
00
03
02
04
07
05
01
02
FE
FE
FB
FF
FB
F1
FC
FF
FE
02
FF
FD
02
FD
0A
0E
FF
01
FE
01
00
02
F7
00
F9
01
07
02
FC
FC
FE
FD
FF
F5
FB
FE
01
00
03
FF
FC
FA
01
01
F3
EF
ED
E3
EC
E6
E0
EC
F0
FA
F3
FD
06
F9
03
FF
F9
FC
03
00
FE
FE
FE
00
FB
F7
EF
DC
DA
EC
EE
EA
E9
EE
F4
F1
EE
F6
F5
F4
04
FD
00
FB
F4
04
0E
08
FF
FF
01
00
F9
E9
DF
D8
E2
F4
F5
F7
02
FC
07
02
F6
F5
FC
F7
FB
FA
FF
FF
00
15
15
12
07
00
FF
02
FE
F4
E7
F5
03
FB
FB
00
FF
FD
09
02
FB
FC
F6
04
FE
01
F9
FC
07
0D
13
0C
02
FE
FF
00
01
04
0A
0A
01
01
03
00
01
FD
06
03
03
FF
FC
FC
00
F7
FA
F6
FC
15
19
0F
04
FE
00
FF
0D
0C
0E
0D
04
FA
09
07
08
0C
0D
05
FC
06
0F
00
01
FB
0D
08
05
15
24
18
01
FF
00
01
09
0E
0E
0E
06
04
06
11
0A
09
0B
FF
06
02
FA
02
FD
FE
05
04
02
11
24
0A
FF
03
FE
01
03
13
15
0B
13
06
01
0A
02
11
09
07
FE
04
0A
02
05
FE
02
07
0F
1F
18
04
03
FE
FE
02
FB
0E
0A
02
0D
08
09
0C
08
07
0F
04
08
0A
08
03
FB
04
0A
10
0A
0C
18
06
FE
01
01
03
04
0B
0C
09
16
0C
08
0A
11
09
04
FE
04
03
F8
05
0B
08
0E
0E
09
11
08
00
FF
01
02
05
02
09
07
08
05
FB
08
05
09
FF
08
04
FB
06
0D
09
13
05
09
0C
15
0B
04
02
01
FE
FF
04
04
0B
05
0D
0D
0B
0D
02
05
01
01
FC
FB
00
01
09
08
09
0A
0E
09
09
04
FE
FF
00
01
02
00
02
00
00
09
06
04
FC
04
05
FA
FD
FD
FC
FD
09
11
0E
11
12
0B
06
04
FE
FD
01
01
FF
FC
F9
F7
F3
F4
FB
FC
FB
FC
03
FF
05
00
FD
08
09
05
01
0B
04
04
0C
04
FF
03
FE
FE
01
FC
FE
FF
FC
F8
F3
F1
F3
F3
F6
FC
FF
01
FF
FF
FA
F8
F9
F9
FB
FF
01
00
00
02
02
FF
02
00
FF
02
02
FE
01
00
01
FD
FB
FB
FF
FD
FD
FA
FE
00
FF
FE
00
FE
01
02
FE
FD
00
FF
00
FF
FF
00
FE
03
02
02
01
01
FE
02
00
00
02
01
FE
00
FE
FE
00
02
00
FF
00
FE
02
02
FF
00
02
FE
02
FF
FD
02
FD
00
02
FD
01
02
FF
FF
01
02
FF
FE
02
01
02
00
00
01
00
00
FE
00
01
FE
01
01
00
01
FE
FE
FE
02
00
FF
FE
01
01
00
FE
02
03
FE
03
FF
01
00
FE
02
00
03
00
02
02
00
FD
01
FE
02
03
00
FE
FD
FE
FF
FF
FF
01
FE
01
01
01
01
02
FE
01
00
FE
FE
FE
01
05
04
07
FF
06
0D
13
0B
11
10
0C
0A
08
08
0A
FF
FC
FB
FE
01
01
01
02
02
02
02
03
0C
0C
08
0F
0E
10
12
0E
10
09
0B
0F
09
0C
06
02
FB
FB
F8
FD
FE
00
FF
02
01
FF
03
08
11
0F
0D
08
02
08
06
06
09
00
06
0D
FF
FF
04
FF
FA
FE
FB
FB
00
FF
FF
00
FE
FE
08
06
07
09
04
05
0C
0C
06
00
0E
05
04
08
FF
08
FC
00
03
FD
FA
FB
FF
00
02
02
03
00
05
0D
0D
08
05
07
05
02
FC
07
02
0B
08
02
06
FC
05
02
F6
F9
F6
F6
FC
00
00
00
FD
FE
04
0E
09
03
04
FF
FE
05
00
06
05
06
06
06
03
0A
05
03
FF
09
EE
F0
FE
01
FF
02
FF
03
06
12
06
07
0A
06
03
FD
F2
FB
FB
0B
10
0C
03
05
08
09
06
0E
F8
F2
FB
02
00
FD
01
01
09
0A
FF
05
00
F8
EB
EC
EE
EF
04
08
05
09
09
06
09
07
03
0A
FD
F6
01
02
FE
02
03
02
0B
08
F9
F8
EA
EB
ED
F2
FC
00
05
0A
07
FD
0D
01
05
0D
FC
02
F9
F8
00
00
FF
02
FE
00
01
FF
FA
F1
F3
F3
FE
06
FD
04
03
11
07
04
FD
06
FE
FF
ED
F4
F6
FC
00
00
FF
00
02
01
02
F8
FA
F5
F6
FA
FF
FE
F9
02
0F
0C
FE
04
02
06
FF
F1
EC
E8
F4
FC
00
02
FD
FE
00
01
02
FB
F5
F4
F5
FC
04
FC
F9
05
03
06
03
FE
FF
01
F9
F7
02
F3
FB
FE
FF
01
FE
03
02
01
01
01
FC
FA
F7
F1
F5
F9
FF
04
02
05
07
FF
FC
F6
03
0B
05
0A
0C
07
00
02
00
03
FE
04
04
0D
04
FA
F3
EC
FA
F9
FD
02
0D
01
F9
F3
FC
0C
0D
05
00
0C
12
0F
FE
02
01
00
02
04
0D
11
06
FD
FA
F3
E8
EA
ED
F6
F8
F0
F2
00
0C
03
0D
FD
03
09
0E
01
F7
00
00
00
FF
00
16
0D
0B
03
F9
FC
F1
F3
F4
EC
F4
F6
04
10
04
03
05
02
0D
0D
03
F7
FE
FF
FF
02
00
FD
12
0E
10
03
FC
FF
FF
FD
F9
FA
FE
FE
02
05
0C
07
03
FE
0B
04
04
FA
FF
02
FE
FE
FF
FE
0E
12
0A
0D
08
08
0C
FF
FA
F0
FF
06
03
03
04
0C
01
0C
06
02
04
FA
FD
01
02
FE
01
04
0A
0C
FF
08
07
07
F5
FB
F9
FF
FF
FE
06
05
FF
06
0C
01
FC
02
FB
FC
FF
02
02
02
FE
05
08
09
02
03
01
FF
FF
FE
07
FC
FC
FE
06
01
08
01
08
08
FE
01
00
FA
01
02
00
FF
01
05
08
10
08
09
0B
01
07
06
08
FB
06
FD
FD
F7
01
0C
03
FF
FF
F9
FA
FD
00
03
01
FE
FF
03
07
10
0A
12
13
08
08
10
0D
0A
0D
0E
03
08
06
FA
FB
00
01
FD
02
FE
FE
00
FF
02
00
02
FC
01
05
0A
13
1D
1A
18
15
1A
17
0A
05
0A
05
04
08
02
FC
00
01
00
FE
FF
FE
02
FF
FF
FF
01
02
00
01
00
01
01
02
03
03
01
05
04
04
00
04
00
FD
FF
00
FE
FE
FF
02
00
FF
00
FF
FE
01
02
01
01
02
FF
FE
FE
FE
FE
FD
01
02
02
01
FD
03
FF
00
02
03
00
01
FE
02
FE
00
FF
02
FE
FE
03
FE
01
03
FD
02
FE
01
FE
FE
01
00
FE
00
FF
FF
02
FE
FF
FD
01
01
FE
02
FF
02
FC
FE
FE
FE
FF
FF
FA
FD
01
FE
FB
00
FE
FC
FD
01
FF
02
02
02
FE
03
FD
FF
FE
01
FE
FE
FF
FA
FA
FC
F8
F4
F4
F3
F9
F6
F5
FC
FC
FC
FE
00
00
FC
FE
FD
FE
01
FF
FF
02
00
02
02
FE
FB
F8
F3
F1
EE
EB
E3
ED
EE
F1
F3
F5
FB
FE
00
02
01
FE
01
02
00
02
FF
FF
02
01
00
FE
FE
F5
F6
F3
F2
F8
F9
F1
F1
F7
FB
FB
06
0E
0E
0B
0B
06
03
FD
FE
01
00
00
FF
03
FF
FE
FE
FD
00
FD
FE
FF
F6
02
00
00
FE
03
03
03
04
0B
12
05
FE
01
01
FD
01
FF
FE
02
07
02
01
FF
04
FC
F8
F9
F3
F2
EE
F1
F7
F1
FD
FA
FC
07
10
04
00
01
01
FF
02
01
00
01
09
05
02
01
00
F7
FB
F1
F5
F2
F5
F2
00
FA
02
00
00
05
0D
09
05
04
00
01
02
FF
FF
02
07
02
00
F9
01
FA
00
F7
F9
F2
F7
F1
F9
00
FD
FE
FF
F8
04
05
08
00
02
FE
02
FE
FA
FA
FF
FD
FC
FC
FE
F8
FF
FC
FD
E9
F5
FE
F7
03
FD
01
01
FF
01
F8
FB
FE
FF
FD
02
FF
FA
F9
F5
F6
FC
FC
05
01
FF
09
F6
E0
01
F7
00
FF
07
F8
00
01
F0
F3
F4
FB
FE
03
FE
F9
FC
F5
FE
03
FF
05
0D
12
06
13
E7
E2
08
0B
06
01
FF
F5
F9
F6
EE
F1
F8
01
FE
02
FD
FC
FA
F4
FF
04
0C
0E
0A
13
11
21
FF
EE
08
0B
02
FE
05
04
09
02
F7
FD
FA
01
02
00
FE
FA
F7
FE
07
0D
0D
0F
10
10
14
10
F3
FB
0D
07
0B
0C
05
0E
0E
07
FD
F6
FD
FD
FE
03
FF
FC
01
10
12
0B
10
0A
0C
06
0C
0C
F8
02
0B
10
13
0A
13
06
04
06
FE
F7
FE
FB
00
01
02
03
FF
0B
03
07
0B
0D
11
0C
0E
07
F8
02
09
12
0F
02
0A
F7
FA
07
FD
EC
F9
FE
00
02
FD
FF
FC
F5
FD
03
0E
0D
0A
FF
FE
05
FF
0D
16
0C
09
05
06
07
04
FC
F9
F5
F7
F9
00
02
00
01
F7
F5
F8
FC
05
08
06
FF
FD
01
08
14
0B
09
09
0A
F8
01
07
FA
FB
F7
F8
FB
FF
FD
FF
FF
F9
FD
FE
FF
FE
04
05
F7
FD
0A
0F
0A
05
08
F6
FE
FC
01
01
F2
F5
F5
F7
FF
FF
FF
00
01
FF
FE
00
00
FB
F2
F0
F0
FA
ED
F9
07
FE
FC
FB
F9
F8
F5
FD
ED
EF
F8
F9
02
00
FE
FE
FF
FD
FA
F8
F7
F1
EE
F2
EC
FB
F5
EF
F9
FF
05
03
FE
F7
F9
FE
F3
F3
F8
FB
00
FE
FE
00
FE
FF
FB
FC
F0
EC
00
FD
FC
FC
FB
F7
FA
00
F9
03
FD
01
01
02
01
FD
FC
FF
02
00
01
00
02
FF
FE
F8
F7
F7
F8
F6
F7
FC
F6
FC
F9
F7
FC
02
FE
08
01
0B
00
FD
FE
00
00
01
02
FF
02
FE
FE
FA
FC
FE
01
02
FE
00
FC
FA
FE
FC
05
03
07
09
06
06
FD
FA
FE
FD
00
01
FF
01
FF
01
FD
01
FF
00
FE
04
FC
09
FA
F8
FC
FA
01
F8
FE
03
01
02
FE
01
FE
00
02
FE
02
00
00
FF
FF
FE
FB
F4
EF
F4
FB
F9
F0
F9
F9
FA
F2
F2
F7
F1
F7
F9
FB
FC
00
02
FE
00
02
FF
01
00
FD
03
FD
FB
F6
F3
F2
EC
F0
EC
E8
EA
EC
EC
ED
F1
FB
FA
FD
FD
FF
00
02
01
02
01
FF
FE
FE
02
FF
FE
FE
FD
FD
00
FD
FD
FC
00
FE
02
00
FE
01
FE
01
01
FD
FE
FF
00
FD
FF
00
FE
FE
00
00
FF
FE
02
FE
03
01
01
FF
00
00
FE
01
02
00
01
00
02
FF
FE
02
FE
00
01
FD
02
00
01
FE
FE
01
00
00
FD
02
02
FE
01
FF
00
00
01
FE
FF
FD
00
01
03
FF
FF
01
FE
FE
01
00
02
02
FF
FE
01
01
FD
FC
FB
FB
FE
00
03
01
00
FD
FF
FF
FF
FE
FD
02
02
FD
FF
02
FE
FE
FC
FE
FF
00
FB
FF
F7
00
FB
FB
00
FF
02
05
06
0B
0A
06
02
02
02
00
01
01
01
FE
FE
01
F7
F8
F9
F4
F8
FC
08
01
F6
FE
0B
02
05
0B
04
F7
06
03
0C
10
06
01
01
02
FF
01
FD
F8
F5
F2
FA
FC
00
07
02
FB
FE
F8
F6
FE
08
08
FE
09
04
0A
0A
0F
0D
04
01
01
01
FF
FA
F7
F9
FA
00
FF
FD
FE
FE
00
FB
06
FE
02
01
03
0D
05
FC
07
0B
1C
12
0A
FF
FD
02
02
F8
EC
F6
FC
03
0B
02
09
03
02
FC
07
F8
08
03
04
01
05
06
0B
0E
1D
1E
04
03
03
02
FF
FA
E5
F5
FD
F7
03
04
04
03
00
FC
FA
F9
FF
00
FE
05
0B
08
02
18
28
21
06
FE
00
FF
FE
F7
EE
F6
FD
FD
04
FF
03
0D
06
FD
F6
F0
F0
FB
02
FB
02
0D
09
14
33
29
0A
03
02
FF
00
F9
F7
FA
FB
05
0A
0E
0A
06
0E
05
03
FD
F8
EF
F0
EF
F9
FE
FF
15
3F
35
0E
FF
02
00
FF
F9
FF
FB
07
02
09
02
04
03
06
13
02
F9
FB
FA
FC
F3
E6
EB
ED
05
1B
25
0B
01
00
01
FF
FC
FF
02
0B
04
FF
FD
09
06
0A
0B
FC
01
F2
F1
F4
F1
F3
E0
D5
D8
DD
FF
08
FE
01
FF
03
FD
05
04
FC
06
FE
01
04
0B
12
0B
FB
F3
ED
FA
FC
00
FF
F4
F4
E7
E3
F9
FE
FD
FE
01
FE
FE
04
FD
FF
00
03
02
0B
FD
06
00
FC
FB
F4
F6
FD
F4
FB
F8
02
FC
FC
F8
FF
FE
01
01
00
00
FD
F7
F9
F8
02
06
05
FF
07
FE
F5
F7
FB
F7
0C
04
FA
FE
FA
05
05
FA
FC
FE
00
00
FE
00
FC
FC
FA
EC
F8
F0
FC
F9
FE
00
F6
02
F5
FB
F9
05
06
00
09
07
02
F9
FE
FE
00
FE
FE
FF
05
06
12
F8
F7
F9
F3
F6
EC
F3
F5
01
02
07
0B
04
06
04
FD
03
05
F9
FC
FF
FE
FD
FD
01
0E
0C
14
07
FE
FA
FC
FD
F7
01
06
03
03
04
FC
01
04
FF
01
08
06
FC
FC
FD
02
02
02
03
10
06
0D
05
0F
FF
FF
02
FF
02
FC
03
FB
FB
01
00
08
06
03
08
0A
FC
FF
FE
01
02
00
01
06
0F
07
FF
0A
09
01
03
FC
03
FB
FE
05
08
04
02
FF
01
10
07
03
05
02
01
01
02
FF
FF
0A
05
07
0A
06
04
02
05
03
02
04
03
FE
04
00
FD
07
0D
10
09
05
04
03
00
00
00
00
FE
09
FD
F7
04
00
00
FC
07
04
07
09
03
04
FD
05
02
02
05
09
0C
05
04
00
00
02
02
01
02
06
07
02
F8
07
03
0B
02
06
FB
01
FF
06
FB
F1
FA
03
02
03
08
04
03
00
02
FE
01
03
02
FF
02
01
01
05
10
07
06
07
0D
0A
07
01
0A
0B
02
02
00
05
04
02
01
02
02
01
03
00
00
03
01
FE
00
00
0A
08
0F
0B
0E
03
10
0F
0B
09
07
01
06
07
0A
03
FD
02
FE
FF
01
FE
FF
FE
FE
00
FF
F8
FC
FF
05
06
02
FF
04
02
FE
FA
FF
01
00
01
FF
00
00
01
FF
FD
FE
FF
01
02
02
01
FF
FF
01
00
01
FE
FF
FD
FE
FE
02
01
FF
01
FE
FD
FF
00
02
FE
02
02
FE
00
01
01
02
FE
02
FF
02
00
00
02
02
FF
02
00
FF
02
FE
FF
03
02
FF
01
03
00
FE
FE
01
00
FE
00
03
03
06
03
02
00
04
08
04
FF
00
FF
FF
01
02
00
00
00
01
02
01
FE
FE
03
01
FE
FE
FE
00
02
06
0A
08
0F
0F
11
0D
0F
08
06
08
09
07
0B
07
07
02
FF
FD
FE
00
FE
FF
01
02
FF
01
04
08
06
09
0B
0E
09
0C
07
0A
00
FE
05
08
00
04
08
09
04
FD
FE
FE
00
FF
00
00
03
03
03
02
02
FE
02
F9
FA
FD
FE
F9
04
04
FE
02
06
07
09
0A
FC
FD
00
03
01
FF
02
00
01
FB
FE
F9
02
00
FF
F0
F9
F7
FF
F5
F6
FE
05
08
05
04
01
0A
03
00
04
02
FD
FE
01
FD
FE
FD
F7
FA
FD
FA
F1
F6
F9
F3
F6
FD
F4
FA
F3
F7
F9
FC
FD
02
04
FE
00
FE
FE
00
00
FB
FE
FC
F4
00
FB
FB
F5
00
FB
F3
FD
F9
F4
F9
F5
F2
F6
F6
F5
FB
05
FD
00
01
FF
FF
FF
00
00
FD
F9
F6
FA
FC
F8
FA
F8
FA
F3
EF
F1
F4
E7
EB
F0
F5
F2
F1
F2
F6
FC
FD
00
FF
00
FF
03
F6
F6
FF
FA
F7
F5
FA
F8
EE
F5
F1
F0
E8
E8
EF
F1
F7
ED
F3
F0
F0
FB
02
02
FE
FC
00
FB
F9
F8
02
01
F7
FC
F6
F5
FB
F7
F0
EE
F0
F0
F0
F8
F6
F0
F9
F8
F0
FD
01
02
02
FF
00
FD
FF
FD
07
01
0C
02
FA
06
06
FB
EC
FB
F5
F4
FD
F9
FF
FE
0A
FE
EE
F7
01
FF
00
FF
FF
FD
FD
06
0C
07
08
02
0B
07
07
FB
F1
FE
FA
FA
F1
FB
04
0D
1A
0F
F4
F8
FE
00
00
00
FC
FD
05
10
06
02
03
06
FF
04
03
F9
04
FC
F5
F7
03
FC
09
0A
1E
0F
F4
F7
FF
02
FE
FF
FE
F6
02
0A
03
09
0B
0A
0F
06
FE
FB
05
04
F4
FB
FF
FF
04
0C
0F
0A
FB
F7
00
FF
01
FF
FD
EF
FC
0A
09
0C
08
08
0F
08
04
07
04
00
FE
FD
01
04
06
01
04
05
01
F7
FF
00
01
FF
FD
F0
02
0C
0D
0B
0D
0E
1B
01
FF
06
02
FF
FA
04
09
FF
00
FF
FF
04
FE
FC
00
FF
02
FD
FE
ED
FF
03
07
0D
0C
18
19
04
06
06
FE
FD
03
03
04
03
04
03
05
01
01
FB
00
FF
FF
FD
FD
F3
F6
01
06
06
09
07
04
19
0D
01
04
08
08
0A
FE
FF
02
00
06
FF
02
FE
00
01
00
02
FB
F8
F8
FD
03
FF
08
10
17
17
0A
11
0C
09
06
03
06
02
05
07
01
FD
FC
FC
00
00
03
FF
FD
F6
FA
F9
06
FC
08
10
0A
14
0B
1B
11
09
04
0C
02
0A
09
FF
00
FC
FD
FE
02
02
02
FF
FE
F9
F3
F1
FE
09
06
07
09
16
12
13
0C
09
0F
0E
04
05
FB
01
FC
FB
FC
01
01
FE
00
02
00
00
F7
F2
F7
01
05
0A
01
0D
09
00
10
05
03
00
02
01
03
FA
F7
FC
FE
FE
01
FF
FF
FD
02
FE
FC
FB
F8
F4
F8
F1
F2
FF
FE
01
01
FB
FB
04
05
01
00
00
FE
FE
01
FE
01
FE
02
FF
02
FE
FF
FE
FC
F9
F7
F5
EE
F0
F0
F1
F5
FA
FC
FA
FD
FD
FE
FE
FF
00
01
FD
00
FE
FF
00
02
02
FD
FF
01
00
00
FC
FF
FD
FE
FC
FD
FD
FD
FC
FF
01
00
01
02
FE
03
FE
FF
00
01
FE
01
FF
01
FD
02
03
00
01
01
02
01
00
01
FE
00
01
01
00
02
03
FE
01
00
01
00
FE
FE
FF
FE
FE
FE
01
FF
FF
FF
02
01
01
FD
01
FE
03
02
02
02
03
FE
FF
02
01
01
03
FE
02
02
FD
FE
01
00
03
00
02
01
01
02
02
01
FF
02
02
FE
00
FF
02
FF
02
FE
FE
02
FE
FF
02
02
02
FD
FF
FF
FE
01
FD
00
FF
FF
FF
00
FE
FE
FE
02
01
FF
02
FF
03
00
02
02
01
00
00
01
02
02
03
01
FE
FF
00
FD
00
FE
FF
FD
00
00
FF
02
01
00
FE
00
00
FE
01
FF
00
01
01
FF
02
FF
02
FE
01
FE
01
FB
FD
FC
FB
F9
FD
FA
FE
00
FE
01
00
01
FE
FE
00
FD
FE
01
FE
00
01
FE
01
FE
01
FC
FC
F6
F3
F4
F7
F4
F2
F4
F5
F6
F8
FA
FB
FE
FE
FD
FD
01
02
00
01
02
01
FF
00
04
05
03
09
06
FC
F7
FE
FD
F9
F5
F6
EE
F3
EC
EE
F4
F8
FE
00
FF
02
FE
02
02
02
04
01
08
0D
0B
0D
09
09
11
08
FF
00
03
FF
06
FF
FD
FB
FF
FD
F9
FE
FD
FD
02
01
FF
01
0A
06
05
0B
0E
03
07
09
07
07
07
FC
05
09
0D
0D
02
0C
08
05
01
FE
FE
00
02
01
04
07
0F
0C
0B
0B
16
0B
07
02
08
0F
FF
08
0E
06
05
0E
05
0B
FD
07
05
FC
F9
01
00
00
02
07
0E
0E
09
06
05
04
05
FC
05
0E
05
12
0D
08
14
0A
08
00
0C
07
01
00
FF
01
01
00
04
08
0C
10
0B
05
03
FB
03
FC
FA
F7
09
0B
10
17
09
0A
0D
12
11
0C
FE
FA
01
01
FE
FF
03
0D
13
10
05
01
03
FD
06
0C
0C
00
03
10
0F
0C
0B
16
09
0C
0D
0B
FD
F7
FE
00
03
FF
06
10
14
11
05
FE
0B
14
01
FD
02
E8
E1
00
11
12
10
0D
FC
02
07
08
F7
F9
02
FF
FE
FF
00
0B
10
0B
07
08
04
FC
FA
02
F9
DB
DF
FF
01
09
03
00
FA
08
07
04
FD
01
03
FF
00
FE
01
06
07
06
05
FB
FB
FC
F6
FC
F0
DB
EF
FC
FE
06
0C
13
19
0C
00
0B
0A
00
FE
00
01
00
02
03
07
02
FA
FD
F9
F1
F1
FB
EC
E9
F6
F2
03
F5
18
14
09
0D
0A
10
08
FD
F8
FE
00
03
00
FF
FF
02
FA
FF
01
FC
F8
ED
E1
FA
FD
F0
08
02
0D
04
08
08
08
00
FD
F9
F9
01
FE
00
01
FF
FE
01
02
FB
F6
FB
F8
EB
F6
03
03
05
07
FD
FD
03
FE
04
02
00
FE
04
03
00
01
00
01
03
FD
FF
FE
EF
F5
F7
F4
F4
FB
FB
02
00
FD
F9
FF
FB
FC
FE
FE
F7
F2
FA
01
FF
00
00
01
00
FF
FB
F6
F2
F0
F6
F7
EE
F6
FF
F9
01
FD
F6
F3
F1
F9
F4
EE
EE
F2
FB
FC
FE
00
00
01
02
FC
F5
F5
EC
ED
F7
F4
F4
F3
FF
01
00
F7
EF
ED
E7
F0
E9
EB
E8
F4
FE
FD
FF
01
00
00
FF
FC
F3
F2
EE
EF
F6
F3
F9
F9
FD
F9
F4
FA
FC
F1
F2
EE
EE
EC
EC
F5
FD
01
02
FF
FE
FF
FB
FB
F5
FD
F8
03
FD
F9
FF
F7
FE
F0
FE
FC
02
F7
F5
F5
F0
EE
EE
F1
FD
01
FF
03
FF
FF
FE
FC
00
07
08
0E
F6
F7
FA
F4
F3
F2
F9
FE
FB
F7
F5
EE
EB
EA
EE
F4
FE
FE
FF
01
FE
00
01
FD
04
0D
0E
09
08
FF
01
FF
F8
02
FF
FF
FC
FE
F3
F8
F6
F6
F7
F3
FC
00
02
FD
FF
00
FF
FE
07
03
03
05
0F
10
09
12
0E
09
08
06
04
06
07
03
FA
FE
FE
FF
FF
01
01
01
FF
02
00
FE
FD
FA
F9
00
05
06
09
07
02
0D
10
10
0B
0C
0B
0A
00
03
00
FE
00
02
02
FE
FE
FF
FF
01
02
00
03
FF
01
01
04
FF
03
04
07
03
06
03
07
06
03
FF
03
01
00
02
03
02
02
FF
00
FE
FE
01
FE
00
01
01
01
FF
00
03
02
00
02
FD
00
FD
FF
01
FE
03
00
01
FF
00
FE
02
01
FF
FE
03
FE
03
FE
02
02
FF
02
FD
FD
00
FF
02
FE
01
FE
02
00
FF
02
00
02
FE
FF
00
02
FF
01
01
FF
03
00
00
FE
FC
00
FB
FC
00
FD
FE
00
FE
FE
01
FE
01
02
FD
FE
02
FE
02
01
03
FF
01
FD
00
01
FF
01
FD
FB
00
FA
FA
FE
FC
04
FA
FB
01
02
04
FF
01
01
FE
01
01
01
00
02
FC
00
01
04
05
08
07
0F
07
10
0B
0D
07
04
02
06
02
00
03
07
01
04
FD
01
01
FF
00
FF
FB
FB
FE
00
03
FA
0B
09
03
09
01
06
0D
FA
02
07
05
FD
FA
01
05
FF
FE
02
00
FE
01
FC
FC
F8
FC
00
FF
FF
FC
0D
03
03
0A
FF
08
F6
09
FF
00
FC
0A
03
07
FE
00
02
01
01
FF
01
FF
F9
01
0A
FF
05
FB
FB
01
F4
0A
FF
F9
05
FF
FE
09
01
0B
0C
06
02
01
FF
01
FD
FE
01
02
08
07
02
0A
04
00
0A
0D
FE
FF
09
F9
02
05
01
05
05
0B
15
09
08
02
02
02
01
01
FF
02
0A
06
08
0A
03
04
01
03
FA
F0
FB
01
FC
03
03
06
03
0F
0F
08
04
FE
03
01
FF
FA
05
03
07
06
08
08
0C
05
0A
FC
02
F1
F4
FA
08
0B
09
07
06
0B
FD
FA
04
03
03
FE
00
FD
05
0C
05
14
0C
09
08
05
06
08
13
00
FB
FA
FA
01
FE
FF
0C
11
0F
02
08
00
01
01
01
05
04
0C
03
05
FC
06
FA
FF
01
0C
09
03
02
05
00
0A
04
0F
0D
18
16
05
02
01
00
03
FF
01
FD
03
02
04
FC
03
FA
04
0A
12
FD
0F
07
F9
01
02
0A
FA
04
09
08
01
FD
02
FE
01
FE
FF
F9
FD
FA
F4
F2
F7
FD
0C
05
0F
09
06
02
02
FC
00
F3
FC
F0
F2
F8
03
FE
02
00
FE
FF
FE
FA
F3
F7
F7
F7
00
FB
FE
05
0E
0F
02
FB
F9
FE
FD
F4
F4
F8
F5
F2
00
00
00
FD
00
FF
FE
F8
F5
F6
FE
00
01
03
04
11
08
05
03
07
00
F9
F3
F0
F1
F3
FE
FA
FD
FB
03
FF
01
00
FE
FB
F6
FF
05
03
07
03
0B
11
05
02
F9
06
FA
F3
FF
FF
FD
F8
04
01
F8
FE
02
00
FF
FF
FC
F8
FC
02
00
00
0A
0D
0E
05
02
FB
00
FB
F5
FE
FE
03
F7
00
04
FD
FB
FC
02
FF
02
01
F7
F8
05
02
FC
FF
07
07
FE
02
F7
F9
FE
01
02
04
01
FE
FF
09
09
FA
F9
00
00
FE
FE
01
F9
F7
00
FF
0D
01
FB
06
FA
03
02
F5
04
F9
00
FF
02
06
0A
0B
05
F9
F9
FC
02
02
FF
FF
FB
FC
FC
08
0B
FD
07
F9
FF
F8
03
FF
FF
FA
02
FF
FE
05
01
06
00
FA
FF
00
00
02
FF
00
FF
FC
FB
02
04
F9
FB
02
08
06
04
06
01
FC
01
00
FC
FA
03
01
02
FA
01
01
FE
00
00
FE
00
FA
F6
F2
F7
09
00
FD
00
08
10
04
07
0D
04
09
07
06
07
FE
02
FC
00
FD
03
FF
01
00
FD
FA
F1
F2
F6
06
05
01
0B
08
06
09
0D
18
FE
0D
17
04
FF
FA
FC
FE
FD
01
FE
03
00
02
FF
FB
FA
FB
F8
F7
F9
03
03
FE
FE
05
08
0A
0B
07
06
03
FD
FD
00
FF
02
01
FE
FF
00
02
FE
FD
01
FD
00
FE
FB
F9
FC
FA
FD
FA
F9
FB
FF
FC
FC
01
FF
FE
03
02
FE
02
02
02
02
02
01
FF
FF
FF
FE
00
00
FE
FD
FF
02
01
02
01
FF
FE
FF
FE
FD
01
02
FE
01
01
FE
FE
00
00
00
01
FF
FD
FE
FF
03
00
01
01
01
00
02
FE
FD
FD
01
FF
FD
FE
02
FE
FF
01
FF
FE
FE
FE
02
01
02
FD
FF
01
FE
FE
00
FD
02
FE
00
00
01
FE
00
FE
FF
FF
FF
FE
FE
02
00
02
FE
FF
FD
FD
02
FF
FE
FF
03
FE
FF
FD
01
01
01
01
00
FF
00
FF
02
FF
01
01
00
01
01
FE
02
FD
FF
02
FD
FE
FE
FF
FD
FF
FE
FD
FB
F7
F9
FB
FD
FD
00
FC
FF
00
00
FE
FE
FF
FE
FF
FF
02
00
02
FF
00
FD
FC
F9
FC
F7
F7
F3
F2
F1
ED
F3
F6
F3
F9
F7
FA
FE
01
01
03
02
00
FE
00
FE
FF
FD
FC
FC
F8
F8
FB
07
04
0A
F9
00
F3
F9
F9
FB
F8
F7
F2
FA
FF
00
FF
02
FE
00
02
FD
FB
F5
F4
F7
FA
04
00
08
07
0C
0D
08
0D
0A
0C
02
04
FC
F5
F3
FA
FC
FF
FE
00
FF
01
FF
FA
F0
F7
F6
01
01
00
02
0B
11
0F
13
12
07
02
02
08
03
FC
F9
F7
FE
00
FF
00
00
FD
F7
F6
F7
FF
F7
0A
FE
FD
FD
F5
07
0E
0A
07
FF
04
FE
FC
07
FD
FA
F8
FD
FE
FE
FF
01
FF
F6
F3
FE
0B
00
02
00
07
04
01
04
08
11
01
03
08
02
03
F9
FC
F8
FB
F7
FE
01
FF
FD
FB
F6
F9
01
08
01
06
03
03
05
04
F7
02
FF
01
FE
05
06
02
FE
00
FA
F5
FB
00
01
01
FE
F9
F6
00
07
06
04
13
06
0A
0D
06
02
02
09
08
12
0B
07
17
0D
0A
FE
F8
FA
01
02
00
00
F7
FA
0A
0E
0F
05
06
0A
0A
06
F7
01
08
0C
0A
0A
0D
0F
0A
0F
0E
0C
F7
F8
FC
00
FE
FE
F9
FF
14
10
01
0A
04
FE
02
FF
F4
04
06
08
10
0A
08
14
0D
0A
07
F8
F0
FA
FC
01
FE
01
FA
FF
0D
01
08
03
FC
00
01
FD
F8
01
01
09
09
0A
06
06
07
07
FF
EE
EF
F8
02
FE
FF
FF
FD
FD
06
05
02
01
03
FA
03
00
FD
FC
F5
07
0B
0C
00
04
07
FD
FB
F1
F1
FA
FC
FE
FE
01
FF
FE
04
FF
FC
FD
09
F9
FE
02
FA
F3
FF
01
0A
09
03
F9
FA
F3
FC
EE
F2
FD
FD
FF
FF
00
FC
F9
F8
F6
F9
02
04
FD
02
FA
01
02
FD
0B
01
03
FF
FD
FD
F8
F4
EF
F0
00
01
01
02
01
FE
F7
F4
F2
00
00
FB
00
0B
09
F5
F8
05
07
FD
03
FB
FD
01
F9
F2
F0
F2
FD
00
03
01
01
01
FA
F8
F5
FD
FE
FE
F5
FA
F5
FB
F8
F8
F6
FE
F5
FD
03
FE
F7
F4
F4
FD
FE
FF
FF
01
FF
FD
FA
FD
00
F9
F4
F4
F0
E8
E9
E6
F7
F6
F7
FC
FC
F7
00
FA
F1
F9
FE
03
00
00
00
02
02
00
FB
FB
FB
FB
FA
F9
F8
F8
F1
F2
F3
F4
F8
FB
F3
F6
F8
F7
FA
F6
01
04
01
00
01
FF
02
FE
FF
FE
F6
FA
F8
FD
FC
02
01
02
FB
01
F3
FB
F7
F6
ED
FB
FB
02
05
03
00
FD
FF
01
02
FF
FF
F9
FA
F5
FB
03
F2
FB
FC
FD
FE
01
F8
FE
FA
FB
FF
FE
05
0F
08
02
FF
02
FD
01
01
FD
FD
01
02
FF
03
05
F8
01
FE
FA
F5
EF
00
FF
01
FE
00
0C
0E
0F
08
00
FD
02
FF
02
FF
01
00
FF
0B
0C
0C
0E
08
0D
09
0B
05
0B
03
09
0B
0C
0E
19
0F
04
02
00
FE
FF
01
FF
00
FF
FF
05
06
0C
0C
0D
13
14
13
17
15
1C
12
11
13
10
08
0A
08
00
FF
FF
00
02
FD
01
01
FE
FE
FE
FD
02
00
04
01
01
00
00
FC
FF
01
FF
FB
01
FF
03
01
00
FE
FE
00
FE
FF
